[PAD]
[unused0]
[unused1]
[unused2]
[unused3]
[unused4]
[unused5]
[unused6]
[unused7]
[unused8]
[unused9]
[unused10]
[unused11]
[unused12]
[unused13]
[unused14]
[unused15]
[unused16]
[unused17]
[unused18]
[unused19]
[unused20]
[unused21]
[unused22]
[unused23]
[unused24]
[unused25]
[unused26]
[unused27]
[unused28]
[unused29]
[unused30]
[unused31]
[unused32]
[unused33]
[unused34]
[unused35]
[unused36]
[unused37]
[unused38]
[unused39]
[unused40]
[unused41]
[unused42]
[unused43]
[unused44]
[unused45]
[unused46]
[unused47]
[unused48]
[unused49]
[unused50]
[unused51]
[unused52]
[unused53]
[unused54]
[unused55]
[unused56]
[unused57]
[unused58]
[unused59]
[unused60]
[unused61]
[unused62]
[unused63]
[unused64]
[unused65]
[unused66]
[unused67]
[unused68]
[unused69]
[unused70]
[unused71]
[unused72]
[unused73]
[unused74]
[unused75]
[unused76]
[unused77]
[unused78]
[unused79]
[unused80]
[unused81]
[unused82]
[unused83]
[unused84]
[unused85]
[unused86]
[unused87]
[unused88]
[unused89]
[unused90]
[unused91]
[unused92]
[unused93]
[unused94]
[unused95]
[unused96]
[unused97]
[unused98]
[UNK]
[CLS]
[SEP]
[MASK]
[unused99]
[unused100]
[unused101]
[unused102]
[unused103]
[unused104]
[unused105]
[unused106]
[unused107]
[unused108]
[unused109]
[unused110]
[unused111]
[unused112]
[unused113]
[unused114]
[unused115]
[unused116]
[unused117]
[unused118]
[unused119]
[unused120]
[unused121]
[unused122]
[unused123]
[unused124]
[unused125]
[unused126]
[unused127]
[unused128]
[unused129]
[unused130]
[unused131]
[unused132]
[unused133]
[unused134]
[unused135]
[unused136]
[unused137]
[unused138]
[unused139]
[unused140]
[unused141]
[unused142]
[unused143]
[unused144]
[unused145]
[unused146]
[unused147]
[unused148]
[unused149]
[unused150]
[unused151]
[unused152]
[unused153]
[unused154]
[unused155]
[unused156]
[unused157]
[unused158]
[unused159]
[unused160]
[unused161]
[unused162]
[unused163]
[unused164]
[unused165]
[unused166]
[unused167]
[unused168]
[unused169]
[unused170]
[unused171]
[unused172]
[unused173]
[unused174]
[unused175]
[unused176]
[unused177]
[unused178]
[unused179]
[unused180]
[unused181]
[unused182]
[unused183]
[unused184]
[unused185]
[unused186]
[unused187]
[unused188]
[unused189]
[unused190]
[unused191]
[unused192]
[unused193]
[unused194]
[unused195]
[unused196]
[unused197]
[unused198]
[unused199]
[unused200]
[unused201]
[unused202]
[unused203]
[unused204]
[unused205]
[unused206]
[unused207]
[unused208]
[unused209]
[unused210]
[unused211]
[unused212]
[unused213]
[unused214]
[unused215]
[unused216]
[unused217]
[unused218]
[unused219]
[unused220]
[unused221]
[unused222]
[unused223]
[unused224]
[unused225]
[unused226]
[unused227]
[unused228]
[unused229]
[unused230]
[unused231]
[unused232]
[unused233]
[unused234]
[unused235]
[unused236]
[unused237]
[unused238]
[unused239]
[unused240]
[unused241]
[unused242]
[unused243]
[unused244]
[unused245]
[unused246]
[unused247]
[unused248]
[unused249]
[unused250]
[unused251]
[unused252]
[unused253]
[unused254]
[unused255]
[unused256]
[unused257]
[unused258]
[unused259]
[unused260]
[unused261]
[unused262]
[unused263]
[unused264]
[unused265]
[unused266]
[unused267]
[unused268]
[unused269]
[unused270]
[unused271]
[unused272]
[unused273]
[unused274]
[unused275]
[unused276]
[unused277]
[unused278]
[unused279]
[unused280]
[unused281]
[unused282]
[unused283]
[unused284]
[unused285]
[unused286]
[unused287]
[unused288]
[unused289]
[unused290]
[unused291]
[unused292]
[unused293]
[unused294]
[unused295]
[unused296]
[unused297]
[unused298]
[unused299]
[unused300]
[unused301]
[unused302]
[unused303]
[unused304]
[unused305]
[unused306]
[unused307]
[unused308]
[unused309]
[unused310]
[unused311]
[unused312]
[unused313]
[unused314]
[unused315]
[unused316]
[unused317]
[unused318]
[unused319]
[unused320]
[unused321]
[unused322]
[unused323]
[unused324]
[unused325]
[unused326]
[unused327]
[unused328]
[unused329]
[unused330]
[unused331]
[unused332]
[unused333]
[unused334]
[unused335]
[unused336]
[unused337]
[unused338]
[unused339]
[unused340]
[unused341]
[unused342]
[unused343]
[unused344]
[unused345]
[unused346]
[unused347]
[unused348]
[unused349]
[unused350]
[unused351]
[unused352]
[unused353]
[unused354]
[unused355]
[unused356]
[unused357]
[unused358]
[unused359]
[unused360]
[unused361]
[unused362]
[unused363]
[unused364]
[unused365]
[unused366]
[unused367]
[unused368]
[unused369]
[unused370]
[unused371]
[unused372]
[unused373]
[unused374]
[unused375]
[unused376]
[unused377]
[unused378]
[unused379]
[unused380]
[unused381]
[unused382]
[unused383]
[unused384]
[unused385]
[unused386]
[unused387]
[unused388]
[unused389]
[unused390]
[unused391]
[unused392]
[unused393]
[unused394]
[unused395]
[unused396]
[unused397]
[unused398]
[unused399]
[unused400]
[unused401]
[unused402]
[unused403]
[unused404]
[unused405]
[unused406]
[unused407]
[unused408]
[unused409]
[unused410]
[unused411]
[unused412]
[unused413]
[unused414]
[unused415]
[unused416]
[unused417]
[unused418]
[unused419]
[unused420]
[unused421]
[unused422]
[unused423]
[unused424]
[unused425]
[unused426]
[unused427]
[unused428]
[unused429]
[unused430]
[unused431]
[unused432]
[unused433]
[unused434]
[unused435]
[unused436]
[unused437]
[unused438]
[unused439]
[unused440]
[unused441]
[unused442]
[unused443]
[unused444]
[unused445]
[unused446]
[unused447]
[unused448]
[unused449]
[unused450]
[unused451]
[unused452]
[unused453]
[unused454]
[unused455]
[unused456]
[unused457]
[unused458]
[unused459]
[unused460]
[unused461]
[unused462]
[unused463]
[unused464]
[unused465]
[unused466]
[unused467]
[unused468]
[unused469]
[unused470]
[unused471]
[unused472]
[unused473]
[unused474]
[unused475]
[unused476]
[unused477]
[unused478]
[unused479]
[unused480]
[unused481]
[unused482]
[unused483]
[unused484]
[unused485]
[unused486]
[unused487]
[unused488]
[unused489]
[unused490]
[unused491]
[unused492]
[unused493]
[unused494]
[unused495]
[unused496]
[unused497]
[unused498]
[unused499]
[unused500]
[unused501]
[unused502]
[unused503]
[unused504]
[unused505]
[unused506]
[unused507]
[unused508]
[unused509]
[unused510]
[unused511]
[unused512]
[unused513]
[unused514]
[unused515]
[unused516]
[unused517]
[unused518]
[unused519]
[unused520]
[unused521]
[unused522]
[unused523]
[unused524]
[unused525]
[unused526]
[unused527]
[unused528]
[unused529]
[unused530]
[unused531]
[unused532]
[unused533]
[unused534]
[unused535]
[unused536]
[unused537]
[unused538]
[unused539]
[unused540]
[unused541]
[unused542]
[unused543]
[unused544]
[unused545]
[unused546]
[unused547]
[unused548]
[unused549]
[unused550]
[unused551]
[unused552]
[unused553]
[unused554]
[unused555]
[unused556]
[unused557]
[unused558]
[unused559]
[unused560]
[unused561]
[unused562]
[unused563]
[unused564]
[unused565]
[unused566]
[unused567]
[unused568]
[unused569]
[unused570]
[unused571]
[unused572]
[unused573]
[unused574]
[unused575]
[unused576]
[unused577]
[unused578]
[unused579]
[unused580]
[unused581]
[unused582]
[unused583]
[unused584]
[unused585]
[unused586]
[unused587]
[unused588]
[unused589]
[unused590]
[unused591]
[unused592]
[unused593]
[unused594]
[unused595]
[unused596]
[unused597]
[unused598]
[unused599]
[unused600]
[unused601]
[unused602]
[unused603]
[unused604]
[unused605]
[unused606]
[unused607]
[unused608]
[unused609]
[unused610]
[unused611]
[unused612]
[unused613]
[unused614]
[unused615]
[unused616]
[unused617]
[unused618]
[unused619]
[unused620]
[unused621]
[unused622]
[unused623]
[unused624]
[unused625]
[unused626]
[unused627]
[unused628]
[unused629]
[unused630]
[unused631]
[unused632]
[unused633]
[unused634]
[unused635]
[unused636]
[unused637]
[unused638]
[unused639]
[unused640]
[unused641]
[unused642]
[unused643]
[unused644]
[unused645]
[unused646]
[unused647]
[unused648]
[unused649]
[unused650]
[unused651]
[unused652]
[unused653]
[unused654]
[unused655]
[unused656]
[unused657]
[unused658]
[unused659]
[unused660]
[unused661]
[unused662]
[unused663]
[unused664]
[unused665]
[unused666]
[unused667]
[unused668]
[unused669]
[unused670]
[unused671]
[unused672]
[unused673]
[unused674]
[unused675]
[unused676]
[unused677]
[unused678]
[unused679]
[unused680]
[unused681]
[unused682]
[unused683]
[unused684]
[unused685]
[unused686]
[unused687]
[unused688]
[unused689]
[unused690]
[unused691]
[unused692]
[unused693]
[unused694]
[unused695]
[unused696]
[unused697]
[unused698]
[unused699]
[unused700]
[unused701]
[unused702]
[unused703]
[unused704]
[unused705]
[unused706]
[unused707]
[unused708]
[unused709]
[unused710]
[unused711]
[unused712]
[unused713]
[unused714]
[unused715]
[unused716]
[unused717]
[unused718]
[unused719]
[unused720]
[unused721]
[unused722]
[unused723]
[unused724]
[unused725]
[unused726]
[unused727]
[unused728]
[unused729]
[unused730]
[unused731]
[unused732]
[unused733]
[unused734]
[unused735]
[unused736]
[unused737]
[unused738]
[unused739]
[unused740]
[unused741]
[unused742]
[unused743]
[unused744]
[unused745]
[unused746]
[unused747]
[unused748]
[unused749]
[unused750]
[unused751]
[unused752]
[unused753]
[unused754]
[unused755]
[unused756]
[unused757]
[unused758]
[unused759]
[unused760]
[unused761]
[unused762]
[unused763]
[unused764]
[unused765]
[unused766]
[unused767]
[unused768]
[unused769]
[unused770]
[unused771]
[unused772]
[unused773]
[unused774]
[unused775]
[unused776]
[unused777]
[unused778]
[unused779]
[unused780]
[unused781]
[unused782]
[unused783]
[unused784]
[unused785]
[unused786]
[unused787]
[unused788]
[unused789]
[unused790]
[unused791]
[unused792]
[unused793]
[unused794]
[unused795]
[unused796]
[unused797]
[unused798]
[unused799]
[unused800]
[unused801]
[unused802]
[unused803]
[unused804]
[unused805]
[unused806]
[unused807]
[unused808]
[unused809]
[unused810]
[unused811]
[unused812]
[unused813]
[unused814]
[unused815]
[unused816]
[unused817]
[unused818]
[unused819]
[unused820]
[unused821]
[unused822]
[unused823]
[unused824]
[unused825]
[unused826]
[unused827]
[unused828]
[unused829]
[unused830]
[unused831]
[unused832]
[unused833]
[unused834]
[unused835]
[unused836]
[unused837]
[unused838]
[unused839]
[unused840]
[unused841]
[unused842]
[unused843]
[unused844]
[unused845]
[unused846]
[unused847]
[unused848]
[unused849]
[unused850]
[unused851]
[unused852]
[unused853]
[unused854]
[unused855]
[unused856]
[unused857]
[unused858]
[unused859]
[unused860]
[unused861]
[unused862]
[unused863]
[unused864]
[unused865]
[unused866]
[unused867]
[unused868]
[unused869]
[unused870]
[unused871]
[unused872]
[unused873]
[unused874]
[unused875]
[unused876]
[unused877]
[unused878]
[unused879]
[unused880]
[unused881]
[unused882]
[unused883]
[unused884]
[unused885]
[unused886]
[unused887]
[unused888]
[unused889]
[unused890]
[unused891]
[unused892]
[unused893]
[unused894]
[unused895]
[unused896]
[unused897]
[unused898]
[unused899]
[unused900]
[unused901]
[unused902]
[unused903]
[unused904]
[unused905]
[unused906]
[unused907]
[unused908]
[unused909]
[unused910]
[unused911]
[unused912]
[unused913]
[unused914]
[unused915]
[unused916]
[unused917]
[unused918]
[unused919]
[unused920]
[unused921]
[unused922]
[unused923]
[unused924]
[unused925]
[unused926]
[unused927]
[unused928]
[unused929]
[unused930]
[unused931]
[unused932]
[unused933]
[unused934]
[unused935]
[unused936]
[unused937]
[unused938]
[unused939]
[unused940]
[unused941]
[unused942]
[unused943]
[unused944]
[unused945]
[unused946]
[unused947]
[unused948]
[unused949]
[unused950]
[unused951]
[unused952]
[unused953]
[unused954]
[unused955]
[unused956]
[unused957]
[unused958]
[unused959]
[unused960]
[unused961]
[unused962]
[unused963]
[unused964]
[unused965]
[unused966]
[unused967]
[unused968]
[unused969]
[unused970]
[unused971]
[unused972]
[unused973]
[unused974]
[unused975]
[unused976]
[unused977]
[unused978]
[unused979]
[unused980]
[unused981]
[unused982]
[unused983]
[unused984]
[unused985]
[unused986]
[unused987]
[unused988]
[unused989]
[unused990]
[unused991]
[unused992]
[unused993]
!
"
#
$
%
&
'
(
)
*
+
,
-
.
/
0
1
2
3
4
5
6
7
8
9
:
;
<
=
>
?
@
[
\
]
^
_
`
a
b
c
d
e
f
g
h
i
j
k
l
m
n
o
p
q
r
s
t
u
v
w
x
y
z
{
|
}
~
¡
¢
£
¤
¥
¦
§
¨
©
ª
«
¬
®
°
±
²
³
´
µ
¶
·
¹
º
»
¼
½
¾
¿
×
ß
æ
ð
÷
ø
þ
đ
ħ
ı
ł
ŋ
œ
ƒ
ɐ
ɑ
ɒ
ɔ
ɕ
ə
ɛ
ɡ
ɣ
ɨ
ɪ
ɫ
ɬ
ɯ
ɲ
ɴ
ɹ
ɾ
ʀ
ʁ
ʂ
ʃ
ʉ
ʊ
ʋ
ʌ
ʎ
ʐ
ʑ
ʒ
ʔ
ʰ
ʲ
ʳ
ʷ
ʸ
ʻ
ʼ
ʾ
ʿ
ˈ
ː
ˡ
ˢ
ˣ
ˤ
α
β
γ
δ
ε
ζ
η
θ
ι
κ
λ
μ
ν
ξ
ο
π
ρ
ς
σ
τ
υ
φ
χ
ψ
ω
а
б
в
г
д
е
ж
з
и
к
л
м
н
о
п
р
с
т
у
ф
х
ц
ч
ш
щ
ъ
ы
ь
э
ю
я
ђ
є
і
ј
љ
њ
ћ
ӏ
ա
բ
գ
դ
ե
թ
ի
լ
կ
հ
մ
յ
ն
ո
պ
ս
վ
տ
ր
ւ
ք
־
א
ב
ג
ד
ה
ו
ז
ח
ט
י
ך
כ
ל
ם
מ
ן
נ
ס
ע
ף
פ
ץ
צ
ק
ר
ש
ת
،
ء
ا
ب
ة
ت
ث
ج
ح
خ
د
ذ
ر
ز
س
ش
ص
ض
ط
ظ
ع
غ
ـ
ف
ق
ك
ل
م
ن
ه
و
ى
ي
ٹ
پ
چ
ک
گ
ں
ھ
ہ
ی
ے
अ
आ
उ
ए
क
ख
ग
च
ज
ट
ड
ण
त
थ
द
ध
न
प
ब
भ
म
य
र
ल
व
श
ष
स
ह
ा
ि
ी
ो
।
॥
ং
অ
আ
ই
উ
এ
ও
ক
খ
গ
চ
ছ
জ
ট
ড
ণ
ত
থ
দ
ধ
ন
প
ব
ভ
ম
য
র
ল
শ
ষ
স
হ
া
ি
ী
ে
க
ச
ட
த
ந
ன
ப
ம
ய
ர
ல
ள
வ
ா
ி
ு
ே
ை
ನ
ರ
ಾ
ක
ය
ර
ල
ව
ා
ก
ง
ต
ท
น
พ
ม
ย
ร
ล
ว
ส
อ
า
เ
་
།
ག
ང
ད
ན
པ
བ
མ
འ
ར
ལ
ས
မ
ა
ბ
გ
დ
ე
ვ
თ
ი
კ
ლ
მ
ნ
ო
რ
ს
ტ
უ
ᄀ
ᄂ
ᄃ
ᄅ
ᄆ
ᄇ
ᄉ
ᄊ
ᄋ
ᄌ
ᄎ
ᄏ
ᄐ
ᄑ
ᄒ
ᅡ
ᅢ
ᅥ
ᅦ
ᅧ
ᅩ
ᅪ
ᅭ
ᅮ
ᅯ
ᅲ
ᅳ
ᅴ
ᅵ
ᆨ
ᆫ
ᆯ
ᆷ
ᆸ
ᆼ
ᴬ
ᴮ
ᴰ
ᴵ
ᴺ
ᵀ
ᵃ
ᵇ
ᵈ
ᵉ
ᵍ
ᵏ
ᵐ
ᵒ
ᵖ
ᵗ
ᵘ
ᵢ
ᵣ
ᵤ
ᵥ
ᶜ
ᶠ
‐
‑
‒
–
—
―
‖
‘
’
‚
“
”
„
†
‡
•
…
‰
′
″
›
‿
⁄
⁰
ⁱ
⁴
⁵
⁶
⁷
⁸
⁹
⁺
⁻
ⁿ
₀
₁
₂
₃
₄
₅
₆
₇
₈
₉
₊
₍
₎
ₐ
ₑ
ₒ
ₓ
ₕ
ₖ
ₗ
ₘ
ₙ
ₚ
ₛ
ₜ
₤
₩
€
₱
₹
ℓ
№
ℝ
™
⅓
⅔
←
↑
→
↓
↔
↦
⇄
⇌
⇒
∂
∅
∆
∇
∈
−
∗
∘
√
∞
∧
∨
∩
∪
≈
≡
≤
≥
⊂
⊆
⊕
⊗
⋅
─
│
■
▪
●
★
☆
☉
♠
♣
♥
♦
♭
♯
⟨
⟩
ⱼ
⺩
⺼
⽥
、
。
〈
〉
《
》
「
」
『
』
〜
あ
い
う
え
お
か
き
く
け
こ
さ
し
す
せ
そ
た
ち
っ
つ
て
と
な
に
ぬ
ね
の
は
ひ
ふ
へ
ほ
ま
み
む
め
も
や
ゆ
よ
ら
り
る
れ
ろ
を
ん
ァ
ア
ィ
イ
ウ
ェ
エ
オ
カ
キ
ク
ケ
コ
サ
シ
ス
セ
タ
チ
ッ
ツ
テ
ト
ナ
ニ
ノ
ハ
ヒ
フ
ヘ
ホ
マ
ミ
ム
メ
モ
ャ
ュ
ョ
ラ
リ
ル
レ
ロ
ワ
ン
・
ー
一
三
上
下
不
世
中
主
久
之
也
事
二
五
井
京
人
亻
仁
介
代
仮
伊
会
佐
侍
保
信
健
元
光
八
公
内
出
分
前
劉
力
加
勝
北
区
十
千
南
博
原
口
古
史
司
合
吉
同
名
和
囗
四
国
國
土
地
坂
城
堂
場
士
夏
外
大
天
太
夫
奈
女
子
学
宀
宇
安
宗
定
宣
宮
家
宿
寺
將
小
尚
山
岡
島
崎
川
州
巿
帝
平
年
幸
广
弘
張
彳
後
御
德
心
忄
志
忠
愛
成
我
戦
戸
手
扌
政
文
新
方
日
明
星
春
昭
智
曲
書
月
有
朝
木
本
李
村
東
松
林
森
楊
樹
橋
歌
止
正
武
比
氏
民
水
氵
氷
永
江
沢
河
治
法
海
清
漢
瀬
火
版
犬
王
生
田
男
疒
発
白
的
皇
目
相
省
真
石
示
社
神
福
禾
秀
秋
空
立
章
竹
糹
美
義
耳
良
艹
花
英
華
葉
藤
行
街
西
見
訁
語
谷
貝
貴
車
軍
辶
道
郎
郡
部
都
里
野
金
鈴
镇
長
門
間
阝
阿
陳
陽
雄
青
面
風
食
香
馬
高
龍
龸
ﬁ
ﬂ
！
（
）
，
－
．
／
：
？
～
the
of
and
in
to
was
he
is
as
for
on
with
that
it
his
by
at
from
her
##s
she
you
had
an
were
but
be
this
are
not
my
they
one
which
or
have
him
me
first
all
also
their
has
up
who
out
been
when
after
there
into
new
two
its
##a
time
would
no
what
about
said
we
over
then
other
so
more
##e
can
if
like
back
them
only
some
could
##i
where
just
##ing
during
before
##n
do
##o
made
school
through
than
now
years
most
world
may
between
down
well
three
##d
year
while
will
##ed
##r
##y
later
##t
city
under
around
did
such
being
used
state
people
part
know
against
your
many
second
university
both
national
##er
these
don
known
off
way
until
re
how
even
get
head
...
didn
##ly
team
american
because
de
##l
born
united
film
since
still
long
work
south
us
became
any
high
again
day
family
see
right
man
eyes
house
season
war
states
including
took
life
north
same
each
called
name
much
place
however
go
four
group
another
found
won
area
here
going
10
away
series
left
home
music
best
make
hand
number
company
several
never
last
john
000
very
album
take
end
good
too
following
released
game
played
little
began
district
##m
old
want
those
side
held
own
early
county
ll
league
use
west
##u
face
think
##es
2010
government
##h
march
came
small
general
town
june
##on
line
based
something
##k
september
thought
looked
along
international
2011
air
july
club
went
january
october
our
august
april
york
12
few
2012
2008
east
show
member
college
2009
father
public
##us
come
men
five
set
station
church
##c
next
former
november
room
party
located
december
2013
age
got
2007
##g
system
let
love
2006
though
every
2014
look
song
water
century
without
body
black
night
within
great
women
single
ve
building
large
population
river
named
band
white
started
##an
once
15
20
should
18
2015
service
top
built
british
open
death
king
moved
local
times
children
february
book
why
11
door
need
president
order
final
road
wasn
although
due
major
died
village
third
knew
2016
asked
turned
st
wanted
say
##p
together
received
main
son
served
different
##en
behind
himself
felt
members
power
football
law
voice
play
##in
near
park
history
30
having
2005
16
##man
saw
mother
##al
army
point
front
help
english
street
art
late
hands
games
award
##ia
young
14
put
published
country
division
across
told
13
often
ever
french
london
center
six
red
2017
led
days
include
light
25
find
tell
among
species
really
according
central
half
2004
form
original
gave
office
making
enough
lost
full
opened
must
included
live
given
german
player
run
business
woman
community
cup
might
million
land
2000
court
development
17
short
round
ii
km
seen
class
story
always
become
sure
research
almost
director
council
la
##2
career
things
using
island
##z
couldn
car
##is
24
close
force
##1
better
free
support
control
field
students
2003
education
married
##b
nothing
worked
others
record
big
inside
level
anything
continued
give
james
##3
military
established
non
returned
feel
does
title
written
thing
feet
william
far
co
association
hard
already
2002
##ra
championship
human
western
100
##na
department
hall
role
various
production
21
19
heart
2001
living
fire
version
##ers
##f
television
royal
##4
produced
working
act
case
society
region
present
radio
period
looking
least
total
keep
england
wife
program
per
brother
mind
special
22
##le
am
works
soon
##6
political
george
services
taken
created
##7
further
able
reached
david
union
joined
upon
done
important
social
information
either
##ic
##x
appeared
position
ground
lead
rock
dark
election
23
board
france
hair
course
arms
site
police
girl
instead
real
sound
##v
words
moment
##te
someone
##8
summer
project
announced
san
less
wrote
past
followed
##5
blue
founded
al
finally
india
taking
records
america
##ne
1999
design
considered
northern
god
stop
battle
toward
european
outside
described
track
today
playing
language
28
call
26
heard
professional
low
australia
miles
california
win
yet
green
##ie
trying
blood
##ton
southern
science
maybe
everything
match
square
27
mouth
video
race
recorded
leave
above
##9
daughter
points
space
1998
museum
change
middle
common
##0
move
tv
post
##ta
lake
seven
tried
elected
closed
ten
paul
minister
##th
months
start
chief
return
canada
person
sea
release
similar
modern
brought
rest
hit
formed
mr
##la
1997
floor
event
doing
thomas
1996
robert
care
killed
training
star
week
needed
turn
finished
railway
rather
news
health
sent
example
ran
term
michael
coming
currently
yes
forces
despite
gold
areas
50
stage
fact
29
dead
says
popular
2018
originally
germany
probably
developed
result
pulled
friend
stood
money
running
mi
signed
word
songs
child
eventually
met
tour
average
teams
minutes
festival
current
deep
kind
1995
decided
usually
eastern
seemed
##ness
episode
bed
added
table
indian
private
charles
route
available
idea
throughout
centre
addition
appointed
style
1994
books
eight
construction
press
mean
wall
friends
remained
schools
study
##ch
##um
institute
oh
chinese
sometimes
events
possible
1992
australian
type
brown
forward
talk
process
food
debut
seat
performance
committee
features
character
arts
herself
else
lot
strong
russian
range
hours
peter
arm
##da
morning
dr
sold
##ry
quickly
directed
1993
guitar
china
##w
31
list
##ma
performed
media
uk
players
smile
##rs
myself
40
placed
coach
province
towards
wouldn
leading
whole
boy
official
designed
grand
census
##el
europe
attack
japanese
henry
1991
##re
##os
cross
getting
alone
action
lower
network
wide
washington
japan
1990
hospital
believe
changed
sister
##ar
hold
gone
sir
hadn
ship
##ka
studies
academy
shot
rights
below
base
bad
involved
kept
largest
##ist
bank
future
especially
beginning
mark
movement
section
female
magazine
plan
professor
lord
longer
##ian
sat
walked
hill
actually
civil
energy
model
families
size
thus
aircraft
completed
includes
data
captain
##or
fight
vocals
featured
richard
bridge
fourth
1989
officer
stone
hear
##ism
means
medical
groups
management
self
lips
competition
entire
lived
technology
leaving
federal
tournament
bit
passed
hot
independent
awards
kingdom
mary
spent
fine
doesn
reported
##ling
jack
fall
raised
itself
stay
true
studio
1988
sports
replaced
paris
systems
saint
leader
theatre
whose
market
capital
parents
spanish
canadian
earth
##ity
cut
degree
writing
bay
christian
awarded
natural
higher
bill
##as
coast
provided
previous
senior
ft
valley
organization
stopped
onto
countries
parts
conference
queen
security
interest
saying
allowed
master
earlier
phone
matter
smith
winning
try
happened
moving
campaign
los
##ley
breath
nearly
mid
1987
certain
girls
date
italian
african
standing
fell
artist
##ted
shows
deal
mine
industry
1986
##ng
everyone
republic
provide
collection
library
student
##ville
primary
owned
older
via
heavy
1st
makes
##able
attention
anyone
africa
##ri
stated
length
ended
fingers
command
staff
skin
foreign
opening
governor
okay
medal
kill
sun
cover
job
1985
introduced
chest
hell
feeling
##ies
success
meet
reason
standard
meeting
novel
1984
trade
source
buildings
##land
rose
guy
goal
##ur
chapter
native
husband
previously
unit
limited
entered
weeks
producer
operations
mountain
takes
covered
forced
related
roman
complete
successful
key
texas
cold
##ya
channel
1980
traditional
films
dance
clear
approximately
500
nine
van
prince
question
active
tracks
ireland
regional
silver
author
personal
sense
operation
##ine
economic
1983
holding
twenty
isbn
additional
speed
hour
edition
regular
historic
places
whom
shook
movie
km²
secretary
prior
report
chicago
read
foundation
view
engine
scored
1982
units
ask
airport
property
ready
immediately
lady
month
listed
contract
##de
manager
themselves
lines
##ki
navy
writer
meant
##ts
runs
##ro
practice
championships
singer
glass
commission
required
forest
starting
culture
generally
giving
access
attended
test
couple
stand
catholic
martin
caught
executive
##less
eye
##ey
thinking
chair
quite
shoulder
1979
hope
decision
plays
defeated
municipality
whether
structure
offered
slowly
pain
ice
direction
##ion
paper
mission
1981
mostly
200
noted
individual
managed
nature
lives
plant
##ha
helped
except
studied
computer
figure
relationship
issue
significant
loss
die
smiled
gun
ago
highest
1972
##am
male
bring
goals
mexico
problem
distance
commercial
completely
location
annual
famous
drive
1976
neck
1978
surface
caused
italy
understand
greek
highway
wrong
hotel
comes
appearance
joseph
double
issues
musical
companies
castle
income
review
assembly
bass
initially
parliament
artists
experience
1974
particular
walk
foot
engineering
talking
window
dropped
##ter
miss
baby
boys
break
1975
stars
edge
remember
policy
carried
train
stadium
bar
sex
angeles
evidence
##ge
becoming
assistant
soviet
1977
upper
step
wing
1970
youth
financial
reach
##ll
actor
numerous
##se
##st
nodded
arrived
##ation
minute
##nt
believed
sorry
complex
beautiful
victory
associated
temple
1968
1973
chance
perhaps
metal
##son
1945
bishop
##et
lee
launched
particularly
tree
le
retired
subject
prize
contains
yeah
theory
empire
##ce
suddenly
waiting
trust
recording
##to
happy
terms
camp
champion
1971
religious
pass
zealand
names
2nd
port
ancient
tom
corner
represented
watch
legal
anti
justice
cause
watched
brothers
45
material
changes
simply
response
louis
fast
##ting
answer
60
historical
1969
stories
straight
create
feature
increased
rate
administration
virginia
el
activities
cultural
overall
winner
programs
basketball
legs
guard
beyond
cast
doctor
mm
flight
results
remains
cost
effect
winter
##ble
larger
islands
problems
chairman
grew
commander
isn
1967
pay
failed
selected
hurt
fort
box
regiment
majority
journal
35
edward
plans
##ke
##ni
shown
pretty
irish
characters
directly
scene
likely
operated
allow
spring
##j
junior
matches
looks
mike
houses
fellow
##tion
beach
marriage
##ham
##ive
rules
oil
65
florida
expected
nearby
congress
sam
peace
recent
iii
wait
subsequently
cell
##do
variety
serving
agreed
please
poor
joe
pacific
attempt
wood
democratic
piece
prime
##ca
rural
mile
touch
appears
township
1964
1966
soldiers
##men
##ized
1965
pennsylvania
closer
fighting
claimed
score
jones
physical
editor
##ous
filled
genus
specific
sitting
super
mom
##va
therefore
supported
status
fear
cases
store
meaning
wales
minor
spain
tower
focus
vice
frank
follow
parish
separate
golden
horse
fifth
remaining
branch
32
presented
stared
##id
uses
secret
forms
##co
baseball
exactly
##ck
choice
note
discovered
travel
composed
truth
russia
ball
color
kiss
dad
wind
continue
ring
referred
numbers
digital
greater
##ns
metres
slightly
direct
increase
1960
responsible
crew
rule
trees
troops
##no
broke
goes
individuals
hundred
weight
creek
sleep
memory
defense
provides
ordered
code
value
jewish
windows
1944
safe
judge
whatever
corps
realized
growing
pre
##ga
cities
alexander
gaze
lies
spread
scott
letter
showed
situation
mayor
transport
watching
workers
extended
##li
expression
normal
##ment
chart
multiple
border
##ba
host
##ner
daily
mrs
walls
piano
##ko
heat
cannot
##ate
earned
products
drama
era
authority
seasons
join
grade
##io
sign
difficult
machine
1963
territory
mainly
##wood
stations
squadron
1962
stepped
iron
19th
##led
serve
appear
sky
speak
broken
charge
knowledge
kilometres
removed
ships
article
campus
simple
##ty
pushed
britain
##ve
leaves
recently
cd
soft
boston
latter
easy
acquired
poland
##sa
quality
officers
presence
planned
nations
mass
broadcast
jean
share
image
influence
wild
offer
emperor
electric
reading
headed
ability
promoted
yellow
ministry
1942
throat
smaller
politician
##by
latin
spoke
cars
williams
males
lack
pop
80
##ier
acting
seeing
consists
##ti
estate
1961
pressure
johnson
newspaper
jr
chris
olympics
online
conditions
beat
elements
walking
vote
##field
needs
carolina
text
featuring
global
block
shirt
levels
francisco
purpose
females
et
dutch
duke
ahead
gas
twice
safety
serious
turning
highly
lieutenant
firm
maria
amount
mixed
daniel
proposed
perfect
agreement
affairs
3rd
seconds
contemporary
paid
1943
prison
save
kitchen
label
administrative
intended
constructed
academic
nice
teacher
races
1956
formerly
corporation
ben
nation
issued
shut
1958
drums
housing
victoria
seems
opera
1959
graduated
function
von
mentioned
picked
build
recognized
shortly
protection
picture
notable
exchange
elections
1980s
loved
percent
racing
fish
elizabeth
garden
volume
hockey
1941
beside
settled
##ford
1940
competed
replied
drew
1948
actress
marine
scotland
steel
glanced
farm
steve
1957
risk
tonight
positive
magic
singles
effects
gray
screen
dog
##ja
residents
bus
sides
none
secondary
literature
polish
destroyed
flying
founder
households
1939
lay
reserve
usa
gallery
##ler
1946
industrial
younger
approach
appearances
urban
ones
1950
finish
avenue
powerful
fully
growth
page
honor
jersey
projects
advanced
revealed
basic
90
infantry
pair
equipment
visit
33
evening
search
grant
effort
solo
treatment
buried
republican
primarily
bottom
owner
1970s
israel
gives
jim
dream
bob
remain
spot
70
notes
produce
champions
contact
ed
soul
accepted
ways
del
##ally
losing
split
price
capacity
basis
trial
questions
##ina
1955
20th
guess
officially
memorial
naval
initial
##ization
whispered
median
engineer
##ful
sydney
##go
columbia
strength
300
1952
tears
senate
00
card
asian
agent
1947
software
44
draw
warm
supposed
com
pro
##il
transferred
leaned
##at
candidate
escape
mountains
asia
potential
activity
entertainment
seem
traffic
jackson
murder
36
slow
product
orchestra
haven
agency
bbc
taught
website
comedy
unable
storm
planning
albums
rugby
environment
scientific
grabbed
protect
##hi
boat
typically
1954
1953
damage
principal
divided
dedicated
mount
ohio
##berg
pick
fought
driver
##der
empty
shoulders
sort
thank
berlin
prominent
account
freedom
necessary
efforts
alex
headquarters
follows
alongside
des
simon
andrew
suggested
operating
learning
steps
1949
sweet
technical
begin
easily
34
teeth
speaking
settlement
scale
##sh
renamed
ray
max
enemy
semi
joint
compared
##rd
scottish
leadership
analysis
offers
georgia
pieces
captured
animal
deputy
guest
organized
##lin
tony
combined
method
challenge
1960s
huge
wants
battalion
sons
rise
crime
types
facilities
telling
path
1951
platform
sit
1990s
##lo
tells
assigned
rich
pull
##ot
commonly
alive
##za
letters
concept
conducted
wearing
happen
bought
becomes
holy
gets
ocean
defeat
languages
purchased
coffee
occurred
titled
##q
declared
applied
sciences
concert
sounds
jazz
brain
##me
painting
fleet
tax
nick
##ius
michigan
count
animals
leaders
episodes
##line
content
##den
birth
##it
clubs
64
palace
critical
refused
fair
leg
laughed
returning
surrounding
participated
formation
lifted
pointed
connected
rome
medicine
laid
taylor
santa
powers
adam
tall
shared
focused
knowing
yards
entrance
falls
##wa
calling
##ad
sources
chosen
beneath
resources
yard
##ite
nominated
silence
zone
defined
##que
gained
thirty
38
bodies
moon
##ard
adopted
christmas
widely
register
apart
iran
premier
serves
du
unknown
parties
##les
generation
##ff
continues
quick
fields
brigade
quiet
teaching
clothes
impact
weapons
partner
flat
theater
supreme
1938
37
relations
##tor
plants
suffered
1936
wilson
kids
begins
##age
1918
seats
armed
internet
models
worth
laws
400
communities
classes
background
knows
thanks
quarter
reaching
humans
carry
killing
format
kong
hong
setting
75
architecture
disease
railroad
inc
possibly
wish
arthur
thoughts
harry
doors
density
##di
crowd
illinois
stomach
tone
unique
reports
anyway
##ir
liberal
der
vehicle
thick
dry
drug
faced
largely
facility
theme
holds
creation
strange
colonel
##mi
revolution
bell
politics
turns
silent
rail
relief
independence
combat
shape
write
determined
sales
learned
4th
finger
oxford
providing
1937
heritage
fiction
situated
designated
allowing
distribution
hosted
##est
sight
interview
estimated
reduced
##ria
toronto
footballer
keeping
guys
damn
claim
motion
sport
sixth
stayed
##ze
en
rear
receive
handed
twelve
dress
audience
granted
brazil
##well
spirit
##ated
noticed
etc
olympic
representative
eric
tight
trouble
reviews
drink
vampire
missing
roles
ranked
newly
household
finals
wave
critics
##ee
phase
massachusetts
pilot
unlike
philadelphia
bright
guns
crown
organizations
roof
42
respectively
clearly
tongue
marked
circle
fox
korea
bronze
brian
expanded
sexual
supply
yourself
inspired
labour
fc
##ah
reference
vision
draft
connection
brand
reasons
1935
classic
driving
trip
jesus
cells
entry
1920
neither
trail
claims
atlantic
orders
labor
nose
afraid
identified
intelligence
calls
cancer
attacked
passing
stephen
positions
imperial
grey
jason
39
sunday
48
swedish
avoid
extra
uncle
message
covers
allows
surprise
materials
fame
hunter
##ji
1930
citizens
figures
davis
environmental
confirmed
shit
titles
di
performing
difference
acts
attacks
##ov
existing
votes
opportunity
nor
shop
entirely
trains
opposite
pakistan
##pa
develop
resulted
representatives
actions
reality
pressed
##ish
barely
wine
conversation
faculty
northwest
ends
documentary
nuclear
stock
grace
sets
eat
alternative
##ps
bag
resulting
creating
surprised
cemetery
1919
drop
finding
sarah
cricket
streets
tradition
ride
1933
exhibition
target
ear
explained
rain
composer
injury
apartment
municipal
educational
occupied
netherlands
clean
billion
constitution
learn
1914
maximum
classical
francis
lose
opposition
jose
ontario
bear
core
hills
rolled
ending
drawn
permanent
fun
##tes
##lla
lewis
sites
chamber
ryan
##way
scoring
height
1934
##house
lyrics
staring
55
officials
1917
snow
oldest
##tic
orange
##ger
qualified
interior
apparently
succeeded
thousand
dinner
lights
existence
fans
heavily
41
greatest
conservative
send
bowl
plus
enter
catch
##un
economy
duty
1929
speech
authorities
princess
performances
versions
shall
graduate
pictures
effective
remembered
poetry
desk
crossed
starring
starts
passenger
sharp
##ant
acres
ass
weather
falling
rank
fund
supporting
check
adult
publishing
heads
cm
southeast
lane
##burg
application
bc
##ura
les
condition
transfer
prevent
display
ex
regions
earl
federation
cool
relatively
answered
besides
1928
obtained
portion
##town
mix
##ding
reaction
liked
dean
express
peak
1932
##tte
counter
religion
chain
rare
miller
convention
aid
lie
vehicles
mobile
perform
squad
wonder
lying
crazy
sword
##ping
attempted
centuries
weren
philosophy
category
##ize
anna
interested
47
sweden
wolf
frequently
abandoned
kg
literary
alliance
task
entitled
##ay
threw
promotion
factory
tiny
soccer
visited
matt
fm
achieved
52
defence
internal
persian
43
methods
##ging
arrested
otherwise
cambridge
programming
villages
elementary
districts
rooms
criminal
conflict
worry
trained
1931
attempts
waited
signal
bird
truck
subsequent
programme
##ol
ad
49
communist
details
faith
sector
patrick
carrying
laugh
##ss
controlled
korean
showing
origin
fuel
evil
1927
##ent
brief
identity
darkness
address
pool
missed
publication
web
planet
ian
anne
wings
invited
##tt
briefly
standards
kissed
##be
ideas
climate
causing
walter
worse
albert
articles
winners
desire
aged
northeast
dangerous
gate
doubt
1922
wooden
multi
##ky
poet
rising
funding
46
communications
communication
violence
copies
prepared
ford
investigation
skills
1924
pulling
electronic
##ak
##ial
##han
containing
ultimately
offices
singing
understanding
restaurant
tomorrow
fashion
christ
ward
da
pope
stands
5th
flow
studios
aired
commissioned
contained
exist
fresh
americans
##per
wrestling
approved
kid
employed
respect
suit
1925
angel
asking
increasing
frame
angry
selling
1950s
thin
finds
##nd
temperature
statement
ali
explain
inhabitants
towns
extensive
narrow
51
jane
flowers
images
promise
somewhere
object
fly
closely
##ls
1912
bureau
cape
1926
weekly
presidential
legislative
1921
##ai
##au
launch
founding
##ny
978
##ring
artillery
strike
un
institutions
roll
writers
landing
chose
kevin
anymore
pp
##ut
attorney
fit
dan
billboard
receiving
agricultural
breaking
sought
dave
admitted
lands
mexican
##bury
charlie
specifically
hole
iv
howard
credit
moscow
roads
accident
1923
proved
wear
struck
hey
guards
stuff
slid
expansion
1915
cat
anthony
##kin
melbourne
opposed
sub
southwest
architect
failure
plane
1916
##ron
map
camera
tank
listen
regarding
wet
introduction
metropolitan
link
ep
fighter
inch
grown
gene
anger
fixed
buy
dvd
khan
domestic
worldwide
chapel
mill
functions
examples
##head
developing
1910
turkey
hits
pocket
antonio
papers
grow
unless
circuit
18th
concerned
attached
journalist
selection
journey
converted
provincial
painted
hearing
aren
bands
negative
aside
wondered
knight
lap
survey
ma
##ow
noise
billy
##ium
shooting
guide
bedroom
priest
resistance
motor
homes
sounded
giant
##mer
150
scenes
equal
comic
patients
hidden
solid
actual
bringing
afternoon
touched
funds
wedding
consisted
marie
canal
sr
kim
treaty
turkish
recognition
residence
cathedral
broad
knees
incident
shaped
fired
norwegian
handle
cheek
contest
represent
##pe
representing
beauty
##sen
birds
advantage
emergency
wrapped
drawing
notice
pink
broadcasting
##ong
somehow
bachelor
seventh
collected
registered
establishment
alan
assumed
chemical
personnel
roger
retirement
jeff
portuguese
wore
tied
device
threat
progress
advance
##ised
banks
hired
manchester
nfl
teachers
structures
forever
##bo
tennis
helping
saturday
sale
applications
junction
hip
incorporated
neighborhood
dressed
ceremony
##ds
influenced
hers
visual
stairs
decades
inner
kansas
hung
hoped
gain
scheduled
downtown
engaged
austria
clock
norway
certainly
pale
protected
1913
victor
employees
plate
putting
surrounded
##ists
finishing
blues
tropical
##ries
minnesota
consider
philippines
accept
54
retrieved
1900
concern
anderson
properties
institution
gordon
successfully
vietnam
##dy
backing
outstanding
muslim
crossing
folk
producing
usual
demand
occurs
observed
lawyer
educated
##ana
kelly
string
pleasure
budget
items
quietly
colorado
philip
typical
##worth
derived
600
survived
asks
mental
##ide
56
jake
jews
distinguished
ltd
1911
sri
extremely
53
athletic
loud
thousands
worried
shadow
transportation
horses
weapon
arena
importance
users
tim
objects
contributed
dragon
douglas
aware
senator
johnny
jordan
sisters
engines
flag
investment
samuel
shock
capable
clark
row
wheel
refers
session
familiar
biggest
wins
hate
maintained
drove
hamilton
request
expressed
injured
underground
churches
walker
wars
tunnel
passes
stupid
agriculture
softly
cabinet
regarded
joining
indiana
##ea
##ms
push
dates
spend
behavior
woods
protein
gently
chase
morgan
mention
burning
wake
combination
occur
mirror
leads
jimmy
indeed
impossible
singapore
paintings
covering
##nes
soldier
locations
attendance
sell
historian
wisconsin
invasion
argued
painter
diego
changing
egypt
##don
experienced
inches
##ku
missouri
vol
grounds
spoken
switzerland
##gan
reform
rolling
ha
forget
massive
resigned
burned
allen
tennessee
locked
values
improved
##mo
wounded
universe
sick
dating
facing
pack
purchase
user
##pur
moments
##ul
merged
anniversary
1908
coal
brick
understood
causes
dynasty
queensland
establish
stores
crisis
promote
hoping
views
cards
referee
extension
##si
raise
arizona
improve
colonial
formal
charged
##rt
palm
lucky
hide
rescue
faces
95
feelings
candidates
juan
##ell
goods
6th
courses
weekend
59
luke
cash
fallen
##om
delivered
affected
installed
carefully
tries
swiss
hollywood
costs
lincoln
responsibility
##he
shore
file
proper
normally
maryland
assistance
jump
constant
offering
friendly
waters
persons
realize
contain
trophy
800
partnership
factor
58
musicians
cry
bound
oregon
indicated
hero
houston
medium
##ure
consisting
somewhat
##ara
57
cycle
##che
beer
moore
frederick
gotten
eleven
worst
weak
approached
arranged
chin
loan
universal
bond
fifteen
pattern
disappeared
##ney
translated
##zed
lip
arab
capture
interests
insurance
##chi
shifted
cave
prix
warning
sections
courts
coat
plot
smell
feed
golf
favorite
maintain
knife
vs
voted
degrees
finance
quebec
opinion
translation
manner
ruled
operate
productions
choose
musician
discovery
confused
tired
separated
stream
techniques
committed
attend
ranking
kings
throw
passengers
measure
horror
fan
mining
sand
danger
salt
calm
decade
dam
require
runner
##ik
rush
associate
greece
##ker
rivers
consecutive
matthew
##ski
sighed
sq
documents
steam
edited
closing
tie
accused
1905
##ini
islamic
distributed
directors
organisation
bruce
7th
breathing
mad
lit
arrival
concrete
taste
08
composition
shaking
faster
amateur
adjacent
stating
1906
twin
flew
##ran
tokyo
publications
##tone
obviously
ridge
storage
1907
carl
pages
concluded
desert
driven
universities
ages
terminal
sequence
borough
250
constituency
creative
cousin
economics
dreams
margaret
notably
reduce
montreal
mode
17th
ears
saved
jan
vocal
##ica
1909
andy
##jo
riding
roughly
threatened
##ise
meters
meanwhile
landed
compete
repeated
grass
czech
regularly
charges
tea
sudden
appeal
##ung
solution
describes
pierre
classification
glad
parking
##ning
belt
physics
99
rachel
add
hungarian
participate
expedition
damaged
gift
childhood
85
fifty
##red
mathematics
jumped
letting
defensive
mph
##ux
##gh
testing
##hip
hundreds
shoot
owners
matters
smoke
israeli
kentucky
dancing
mounted
grandfather
emma
designs
profit
argentina
##gs
truly
li
lawrence
cole
begun
detroit
willing
branches
smiling
decide
miami
enjoyed
recordings
##dale
poverty
ethnic
gay
##bi
gary
arabic
09
accompanied
##one
##ons
fishing
determine
residential
acid
##ary
alice
returns
starred
mail
##ang
jonathan
strategy
##ue
net
forty
cook
businesses
equivalent
commonwealth
distinct
ill
##cy
seriously
##ors
##ped
shift
harris
replace
rio
imagine
formula
ensure
##ber
additionally
scheme
conservation
occasionally
purposes
feels
favor
##and
##ore
1930s
contrast
hanging
hunt
movies
1904
instruments
victims
danish
christopher
busy
demon
sugar
earliest
colony
studying
balance
duties
##ks
belgium
slipped
carter
05
visible
stages
iraq
fifa
##im
commune
forming
zero
07
continuing
talked
counties
legend
bathroom
option
tail
clay
daughters
afterwards
severe
jaw
visitors
##ded
devices
aviation
russell
kate
##vi
entering
subjects
##ino
temporary
swimming
forth
smooth
ghost
audio
bush
operates
rocks
movements
signs
eddie
##tz
ann
voices
honorary
06
memories
dallas
pure
measures
racial
promised
66
harvard
ceo
16th
parliamentary
indicate
benefit
flesh
dublin
louisiana
1902
1901
patient
sleeping
1903
membership
coastal
medieval
wanting
element
scholars
rice
62
limit
survive
makeup
rating
definitely
collaboration
obvious
##tan
boss
ms
baron
birthday
linked
soil
diocese
##lan
ncaa
##mann
offensive
shell
shouldn
waist
##tus
plain
ross
organ
resolution
manufacturing
adding
relative
kennedy
98
whilst
moth
marketing
gardens
crash
72
heading
partners
credited
carlos
moves
cable
##zi
marshall
##out
depending
bottle
represents
rejected
responded
existed
04
jobs
denmark
lock
##ating
treated
graham
routes
talent
commissioner
drugs
secure
tests
reign
restored
photography
##gi
contributions
oklahoma
designer
disc
grin
seattle
robin
paused
atlanta
unusual
##gate
praised
las
laughing
satellite
hungary
visiting
##sky
interesting
factors
deck
poems
norman
##water
stuck
speaker
rifle
domain
premiered
##her
dc
comics
actors
01
reputation
eliminated
8th
ceiling
prisoners
script
##nce
leather
austin
mississippi
rapidly
admiral
parallel
charlotte
guilty
tools
gender
divisions
fruit
##bs
laboratory
nelson
fantasy
marry
rapid
aunt
tribe
requirements
aspects
suicide
amongst
adams
bone
ukraine
abc
kick
sees
edinburgh
clothing
column
rough
gods
hunting
broadway
gathered
concerns
##ek
spending
ty
12th
snapped
requires
solar
bones
cavalry
##tta
iowa
drinking
waste
index
franklin
charity
thompson
stewart
tip
flash
landscape
friday
enjoy
singh
poem
listening
##back
eighth
fred
differences
adapted
bomb
ukrainian
surgery
corporate
masters
anywhere
##more
waves
odd
sean
portugal
orleans
dick
debate
kent
eating
puerto
cleared
96
expect
cinema
97
guitarist
blocks
electrical
agree
involving
depth
dying
panel
struggle
##ged
peninsula
adults
novels
emerged
vienna
metro
debuted
shoes
tamil
songwriter
meets
prove
beating
instance
heaven
scared
sending
marks
artistic
passage
superior
03
significantly
shopping
##tive
retained
##izing
malaysia
technique
cheeks
##ola
warren
maintenance
destroy
extreme
allied
120
appearing
##yn
fill
advice
alabama
qualifying
policies
cleveland
hat
battery
smart
authors
10th
soundtrack
acted
dated
lb
glance
equipped
coalition
funny
outer
ambassador
roy
possibility
couples
campbell
dna
loose
ethan
supplies
1898
gonna
88
monster
##res
shake
agents
frequency
springs
dogs
practices
61
gang
plastic
easier
suggests
gulf
blade
exposed
colors
industries
markets
pan
nervous
electoral
charts
legislation
ownership
##idae
mac
appointment
shield
copy
assault
socialist
abbey
monument
license
throne
employment
jay
93
replacement
charter
cloud
powered
suffering
accounts
oak
connecticut
strongly
wright
colour
crystal
13th
context
welsh
networks
voiced
gabriel
jerry
##cing
forehead
mp
##ens
manage
schedule
totally
remix
##ii
forests
occupation
print
nicholas
brazilian
strategic
vampires
engineers
76
roots
seek
correct
instrumental
und
alfred
backed
hop
##des
stanley
robinson
traveled
wayne
welcome
austrian
achieve
67
exit
rates
1899
strip
whereas
##cs
sing
deeply
adventure
bobby
rick
jamie
careful
components
cap
useful
personality
knee
##shi
pushing
hosts
02
protest
ca
ottoman
symphony
##sis
63
boundary
1890
processes
considering
considerable
tons
##work
##ft
##nia
cooper
trading
dear
conduct
91
illegal
apple
revolutionary
holiday
definition
harder
##van
jacob
circumstances
destruction
##lle
popularity
grip
classified
liverpool
donald
baltimore
flows
seeking
honour
approval
92
mechanical
till
happening
statue
critic
increasingly
immediate
describe
commerce
stare
##ster
indonesia
meat
rounds
boats
baker
orthodox
depression
formally
worn
naked
claire
muttered
sentence
11th
emily
document
77
criticism
wished
vessel
spiritual
bent
virgin
parker
minimum
murray
lunch
danny
printed
compilation
keyboards
false
blow
belonged
68
raising
78
cutting
##board
pittsburgh
##up
9th
shadows
81
hated
indigenous
jon
15th
barry
scholar
ah
##zer
oliver
##gy
stick
susan
meetings
attracted
spell
romantic
##ver
ye
1895
photo
demanded
customers
##ac
1896
logan
revival
keys
modified
commanded
jeans
##ious
upset
raw
phil
detective
hiding
resident
vincent
##bly
experiences
diamond
defeating
coverage
lucas
external
parks
franchise
helen
bible
successor
percussion
celebrated
il
lift
profile
clan
romania
##ied
mills
##su
nobody
achievement
shrugged
fault
1897
rhythm
initiative
breakfast
carbon
700
69
lasted
violent
74
wound
ken
killer
gradually
filmed
°c
dollars
processing
94
remove
criticized
guests
sang
chemistry
##vin
legislature
disney
##bridge
uniform
escaped
integrated
proposal
purple
denied
liquid
karl
influential
morris
nights
stones
intense
experimental
twisted
71
84
##ld
pace
nazi
mitchell
ny
blind
reporter
newspapers
14th
centers
burn
basin
forgotten
surviving
filed
collections
monastery
losses
manual
couch
description
appropriate
merely
tag
missions
sebastian
restoration
replacing
triple
73
elder
julia
warriors
benjamin
julian
convinced
stronger
amazing
declined
versus
merchant
happens
output
finland
bare
barbara
absence
ignored
dawn
injuries
##port
producers
##ram
82
luis
##ities
kw
admit
expensive
electricity
nba
exception
symbol
##ving
ladies
shower
sheriff
characteristics
##je
aimed
button
ratio
effectively
summit
angle
jury
bears
foster
vessels
pants
executed
evans
dozen
advertising
kicked
patrol
1889
competitions
lifetime
principles
athletics
##logy
birmingham
sponsored
89
rob
nomination
1893
acoustic
##sm
creature
longest
##tra
credits
harbor
dust
josh
##so
territories
milk
infrastructure
completion
thailand
indians
leon
archbishop
##sy
assist
pitch
blake
arrangement
girlfriend
serbian
operational
hence
sad
scent
fur
dj
sessions
hp
refer
rarely
##ora
exists
1892
##ten
scientists
dirty
penalty
burst
portrait
seed
79
pole
limits
rival
1894
stable
alpha
grave
constitutional
alcohol
arrest
flower
mystery
devil
architectural
relationships
greatly
habitat
##istic
larry
progressive
remote
cotton
##ics
##ok
preserved
reaches
##ming
cited
86
vast
scholarship
decisions
cbs
joy
teach
1885
editions
knocked
eve
searching
partly
participation
gap
animated
fate
excellent
##ett
na
87
alternate
saints
youngest
##ily
climbed
##ita
##tors
suggest
##ct
discussion
staying
choir
lakes
jacket
revenue
nevertheless
peaked
instrument
wondering
annually
managing
neil
1891
signing
terry
##ice
apply
clinical
brooklyn
aim
catherine
fuck
farmers
figured
ninth
pride
hugh
evolution
ordinary
involvement
comfortable
shouted
tech
encouraged
taiwan
representation
sharing
##lia
##em
panic
exact
cargo
competing
fat
cried
83
1920s
occasions
pa
cabin
borders
utah
marcus
##isation
badly
muscles
##ance
victorian
transition
warner
bet
permission
##rin
slave
terrible
similarly
shares
seth
uefa
possession
medals
benefits
colleges
lowered
perfectly
mall
transit
##ye
##kar
publisher
##ened
harrison
deaths
elevation
##ae
asleep
machines
sigh
ash
hardly
argument
occasion
parent
leo
decline
1888
contribution
##ua
concentration
1000
opportunities
hispanic
guardian
extent
emotions
hips
mason
volumes
bloody
controversy
diameter
steady
mistake
phoenix
identify
violin
##sk
departure
richmond
spin
funeral
enemies
1864
gear
literally
connor
random
sergeant
grab
confusion
1865
transmission
informed
op
leaning
sacred
suspended
thinks
gates
portland
luck
agencies
yours
hull
expert
muscle
layer
practical
sculpture
jerusalem
latest
lloyd
statistics
deeper
recommended
warrior
arkansas
mess
supports
greg
eagle
1880
recovered
rated
concerts
rushed
##ano
stops
eggs
files
premiere
keith
##vo
delhi
turner
pit
affair
belief
paint
##zing
mate
##ach
##ev
victim
##ology
withdrew
bonus
styles
fled
##ud
glasgow
technologies
funded
nbc
adaptation
##ata
portrayed
cooperation
supporters
judges
bernard
justin
hallway
ralph
##ick
graduating
controversial
distant
continental
spider
bite
##ho
recognize
intention
mixing
##ese
egyptian
bow
tourism
suppose
claiming
tiger
dominated
participants
vi
##ru
nurse
partially
tape
##rum
psychology
##rn
essential
touring
duo
voting
civilian
emotional
channels
##king
apparent
hebrew
1887
tommy
carrier
intersection
beast
hudson
##gar
##zo
lab
nova
bench
discuss
costa
##ered
detailed
behalf
drivers
unfortunately
obtain
##lis
rocky
##dae
siege
friendship
honey
##rian
1861
amy
hang
posted
governments
collins
respond
wildlife
preferred
operator
##po
laura
pregnant
videos
dennis
suspected
boots
instantly
weird
automatic
businessman
alleged
placing
throwing
ph
mood
1862
perry
venue
jet
remainder
##lli
##ci
passion
biological
boyfriend
1863
dirt
buffalo
ron
segment
fa
abuse
##era
genre
thrown
stroke
colored
stress
exercise
displayed
##gen
struggled
##tti
abroad
dramatic
wonderful
thereafter
madrid
component
widespread
##sed
tale
citizen
todd
monday
1886
vancouver
overseas
forcing
crying
descent
##ris
discussed
substantial
ranks
regime
1870
provinces
switch
drum
zane
ted
tribes
proof
lp
cream
researchers
volunteer
manor
silk
milan
donated
allies
venture
principle
delivery
enterprise
##ves
##ans
bars
traditionally
witch
reminded
copper
##uk
pete
inter
links
colin
grinned
elsewhere
competitive
frequent
##oy
scream
##hu
tension
texts
submarine
finnish
defending
defend
pat
detail
1884
affiliated
stuart
themes
villa
periods
tool
belgian
ruling
crimes
answers
folded
licensed
resort
demolished
hans
lucy
1881
lion
traded
photographs
writes
craig
##fa
trials
generated
beth
noble
debt
percentage
yorkshire
erected
ss
viewed
grades
confidence
ceased
islam
telephone
retail
##ible
chile
m²
roberts
sixteen
##ich
commented
hampshire
innocent
dual
pounds
checked
regulations
afghanistan
sung
rico
liberty
assets
bigger
options
angels
relegated
tribute
wells
attending
leaf
##yan
butler
romanian
forum
monthly
lisa
patterns
gmina
##tory
madison
hurricane
rev
##ians
bristol
##ula
elite
valuable
disaster
democracy
awareness
germans
freyja
##ins
loop
absolutely
paying
populations
maine
sole
prayer
spencer
releases
doorway
bull
##ani
lover
midnight
conclusion
##sson
thirteen
lily
mediterranean
##lt
nhl
proud
sample
##hill
drummer
guinea
##ova
murphy
climb
##ston
instant
attributed
horn
ain
railways
steven
##ao
autumn
ferry
opponent
root
traveling
secured
corridor
stretched
tales
sheet
trinity
cattle
helps
indicates
manhattan
murdered
fitted
1882
gentle
grandmother
mines
shocked
vegas
produces
##light
caribbean
##ou
belong
continuous
desperate
drunk
historically
trio
waved
raf
dealing
nathan
bat
murmured
interrupted
residing
scientist
pioneer
harold
aaron
##net
delta
attempting
minority
mini
believes
chorus
tend
lots
eyed
indoor
load
shots
updated
jail
##llo
concerning
connecting
wealth
##ved
slaves
arrive
rangers
sufficient
rebuilt
##wick
cardinal
flood
muhammad
whenever
relation
runners
moral
repair
viewers
arriving
revenge
punk
assisted
bath
fairly
breathe
lists
innings
illustrated
whisper
nearest
voters
clinton
ties
ultimate
screamed
beijing
lions
andre
fictional
gathering
comfort
radar
suitable
dismissed
hms
ban
pine
wrist
atmosphere
voivodeship
bid
timber
##ned
##nan
giants
##ane
cameron
recovery
uss
identical
categories
switched
serbia
laughter
noah
ensemble
therapy
peoples
touching
##off
locally
pearl
platforms
everywhere
ballet
tables
lanka
herbert
outdoor
toured
derek
1883
spaces
contested
swept
1878
exclusive
slight
connections
##dra
winds
prisoner
collective
bangladesh
tube
publicly
wealthy
thai
##ys
isolated
select
##ric
insisted
pen
fortune
ticket
spotted
reportedly
animation
enforcement
tanks
110
decides
wider
lowest
owen
##time
nod
hitting
##hn
gregory
furthermore
magazines
fighters
solutions
##ery
pointing
requested
peru
reed
chancellor
knights
mask
worker
eldest
flames
reduction
1860
volunteers
##tis
reporting
##hl
wire
advisory
endemic
origins
settlers
pursue
knock
consumer
1876
eu
compound
creatures
mansion
sentenced
ivan
deployed
guitars
frowned
involves
mechanism
kilometers
perspective
shops
maps
terminus
duncan
alien
fist
bridges
##pers
heroes
fed
derby
swallowed
##ros
patent
sara
illness
characterized
adventures
slide
hawaii
jurisdiction
##op
organised
##side
adelaide
walks
biology
se
##ties
rogers
swing
tightly
boundaries
##rie
prepare
implementation
stolen
##sha
certified
colombia
edwards
garage
##mm
recalled
##ball
rage
harm
nigeria
breast
##ren
furniture
pupils
settle
##lus
cuba
balls
client
alaska
21st
linear
thrust
celebration
latino
genetic
terror
##cia
##ening
lightning
fee
witness
lodge
establishing
skull
##ique
earning
hood
##ei
rebellion
wang
sporting
warned
missile
devoted
activist
porch
worship
fourteen
package
1871
decorated
##shire
housed
##ock
chess
sailed
doctors
oscar
joan
treat
garcia
harbour
jeremy
##ire
traditions
dominant
jacques
##gon
##wan
relocated
1879
amendment
sized
companion
simultaneously
volleyball
spun
acre
increases
stopping
loves
belongs
affect
drafted
tossed
scout
battles
1875
filming
shoved
munich
tenure
vertical
romance
pc
##cher
argue
##ical
craft
ranging
www
opens
honest
tyler
yesterday
virtual
##let
muslims
reveal
snake
immigrants
radical
screaming
speakers
firing
saving
belonging
ease
lighting
prefecture
blame
farmer
hungry
grows
rubbed
beam
sur
subsidiary
##cha
armenian
sao
dropping
conventional
##fer
microsoft
reply
qualify
spots
1867
sweat
festivals
##ken
immigration
physician
discover
exposure
sandy
explanation
isaac
implemented
##fish
hart
initiated
connect
stakes
presents
heights
householder
pleased
tourist
regardless
slip
closest
##ction
surely
sultan
brings
riley
preparation
aboard
slammed
baptist
experiment
ongoing
interstate
organic
playoffs
##ika
1877
130
##tar
hindu
error
tours
tier
plenty
arrangements
talks
trapped
excited
sank
ho
athens
1872
denver
welfare
suburb
athletes
trick
diverse
belly
exclusively
yelled
1868
##med
conversion
##ette
1874
internationally
computers
conductor
abilities
sensitive
hello
dispute
measured
globe
rocket
prices
amsterdam
flights
tigers
inn
municipalities
emotion
references
3d
##mus
explains
airlines
manufactured
pm
archaeological
1873
interpretation
devon
comment
##ites
settlements
kissing
absolute
improvement
suite
impressed
barcelona
sullivan
jefferson
towers
jesse
julie
##tin
